1.19
0.13
0.85
0.3
0.76
1.46
-0.15
0.18
0.54
0.76
-0.34
-0.06
-0.49
0.34
1.05
1.38
0.03
-0.43
1.49
-0.43
1.26
0.05
-0.1
1.19
0.13
0.85
0.3
0.76
1.46
-0.15
0.18
0.54
0.76
-0.34
-0.06
-0.49
0.34
1.05
1.38
0.03
-0.43
1.49
-0.43
1.26
0.05
-0.1
1.19
0.13
0.85
0.3
0.76
1.46
-0.15
0.18
0.54
0.76
-0.34
-0.06
-0.49
0.34
1.05
1.38
0.03
-0.43
1.49
-0.43
1.26
0.05
-0.1
1.19
0.13
0.85
0.3
0.76
1.46
-0.15
0.18
0.54
0.76
-0.34
-0.06
-0.49
0.34
1.05
1.38
0.03
-0.43
1.49
-0.43
1.26
0.05
-0.1
1.19
0.13
0.85
0.3
0.76
1.46
-0.15
0.18
0.54
0.76
-0.34
-0.06
-0.49
0.34
1.05
1.38
0.03
-0.43
1.49
-0.43
1.26
0.05
-0.1
1.19
0.13
0.85
0.3
0.76
1.46
-0.15
0.18
0.54
0.76
-0.34
-0.06
-0.49
0.34
1.05
1.38
0.03
-0.43
1.49
-0.43
1.26
0.05
-0.1
1.19
0.13
0.85
0.3
0.76
1.46
-0.15
0.18
0.54
0.76
-0.34
-0.06
-0.49
0.34
1.05
1.38
0.03
-0.43
1.49
-0.43
1.26
0.05
-0.1
1.19
0.13
0.85
0.3
0.76
1.46
-0.15
0.18
0.54
0.76
-0.34
-0.06
-0.49
0.34
1.05
1.38
0.03
-0.43
1.49
-0.43
1.26
0.05
-0.1
1.19
0.13
0.85
0.3
0.76
1.46
-0.15
0.18
0.54
0.76
-0.34
-0.06
-0.49
0.34
1.05
1.38
0.03
-0.43
1.49
-0.43
1.26
0.05
-0.1
1.19
0.13
0.85
0.3
0.76
1.46
-0.15
0.18
0.54
0.76
-0.34
-0.06
-0.49
0.34
1.05
1.38
0.03
-0.43
1.49
-0.43
1.26
0.05
-0.1
1.19
0.13
0.85
0.3
0.76
1.46
-0.15
0.18
0.54
0.76
-0.34
-0.06
-0.49
0.34
1.05
1.38
0.03
-0.43
1.49
-0.43
1.26
0.05
-0.1
1.19
0.13
0.85
0.3
0.76
1.46
-0.15
0.18
0.54
0.76
-0.34
-0.06
-0.49
0.34
1.05
1.38
0.03
-0.43
1.49
-0.43
1.26
0.05
-0.1
1.19
0.13
0.85
0.3
0.76
1.46
-0.15
0.18
0.54
0.76
-0.34
-0.06
-0.49
0.34
1.05
1.38
0.03
-0.43
1.49
-0.43
1.26
0.05
-0.1
1.19
0.13
0.85
0.3
0.76
1.46
-0.15
0.18
0.54
0.76
-0.34
-0.06
-0.49
0.34
1.05
1.38
0.03
-0.43
1.49
-0.43
1.26
0.05
-0.1
1.19
0.13
0.85
0.3
0.76
1.46
-0.15
0.18
0.54
0.76
-0.34
-0.06
-0.49
0.34
1.05
1.38
0.03
-0.43
1.49
-0.43
1.26
0.05
-0.1
1.19
0.13
0.85
0.3
0.76
1.46
-0.15
0.18
0.54
0.76
-0.34
-0.06
-0.49
0.34
1.05
1.38
0.03
-0.43
1.49
-0.43
1.26
0.05
-0.1
1.19
0.13
0.85
0.3
0.76
1.46
-0.15
0.18
0.54
0.76
-0.34
-0.06
-0.49
0.34
1.05
1.38
0.03
-0.43
1.49
-0.43
1.26
0.05
-0.1
1.19
0.13
0.85
0.3
0.76
1.46
-0.15
0.18
0.54
0.76
-0.34
-0.06
-0.49
0.34
1.05
1.38
0.03
-0.43
1.49
-0.43
1.26
0.05
-0.1
1.19
0.13
0.85
0.3
0.76
1.46
-0.15
0.18
0.54
0.76
-0.34
-0.06
-0.49
0.34
1.05
1.38
0.03
-0.43
1.49
-0.43
1.26
0.05
-0.1
1.19
0.13
0.85
0.3
0.76
1.46
-0.15
0.18
0.54
0.76
-0.34
-0.06
-0.49
0.34
1.05
1.38
0.03
-0.43
1.49
-0.43
1.26
0.05
-0.1
1.19
0.13
0.85
0.3
0.76
1.46
-0.15
0.18
0.54
0.76
-0.34
-0.06
-0.49
0.34
1.05
1.38
0.03
-0.43
1.49
-0.43
1.26
0.05
-0.1
1.19
0.13
0.85
0.3
0.76
1.46
-0.15
0.18
0.54
0.76
-0.34
-0.06
-0.49
0.34
1.05
1.38
0.03
-0.43
1.49
-0.43
1.26
0.05
-0.1
1.19
0.13
0.85
0.3
0.76
1.46
-0.15
0.18
0.54
0.76
-0.34
-0.06
-0.49
0.34
1.05
1.38
0.03
-0.43
1.49
-0.43
1.26
0.05
-0.1
1.19
0.13
0.85
0.3
0.76
1.46
-0.15
0.18
0.54
0.76
-0.34
-0.06
-0.49
0.34
1.05
1.38
0.03
-0.43
1.49
-0.43
1.26
0.05
-0.1
1.19
0.13
0.85
0.3
0.76
1.46
-0.15
0.18
0.54
0.76
-0.34
-0.06
-0.49
0.34
1.05
1.38
0.03
-0.43
1.49
-0.43
1.26
0.05
-0.1
1.19
0.13
0.85
0.3
0.76
1.46
-0.15
0.18
0.54
0.76
-0.34
-0.06
-0.49
0.34
1.05
1.38
0.03
-0.43
1.49
-0.43
1.26
0.05
-0.1
1.19
0.13
0.85
0.3
0.76
1.46
-0.15
0.18
0.54
0.76
-0.34
-0.06
-0.49
0.34
1.05
1.38
0.03
-0.43
1.49
-0.43
1.26
0.05
-0.1
1.19
0.13
0.85
0.3
0.76
1.46
-0.15
0.18
0.54
0.76
-0.34
-0.06
-0.49
0.34
1.05
1.38
0.03
-0.43
1.49
-0.43
1.26
0.05
-0.1
1.19
0.13
0.85
0.3
0.76
1.46
-0.15
0.18
0.54
0.76
-0.34
-0.06
-0.49
0.34
1.05
1.38
0.03
-0.43
1.49
-0.43
1.26
0.05
-0.1
1.19
0.13
0.85
0.3
0.76
1.46
-0.15
0.18
0.54
0.76
-0.34
-0.06
-0.49
0.34
1.05
1.38
0.03
-0.43
1.49
-0.43
1.26
0.05
-0.1
1.19
0.13
0.85
0.3
0.76
1.46
-0.15
0.18
0.54
0.76
-0.34
-0.06
-0.49
0.34
1.05
1.38
0.03
-0.43
1.49
-0.43
1.26
0.05
-0.1
1.19
0.13
0.85
0.3
0.76
1.46
-0.15
0.18
0.54
0.76
-0.34
-0.06
-0.49
0.34
1.05
1.38
0.03
-0.43
1.49
-0.43
1.26
0.05
-0.1
1.19
0.13
0.85
0.3
0.76
1.46
-0.15
0.18
0.54
0.76
-0.34
-0.06
-0.49
0.34
1.05
1.38
0.03
-0.43
1.49
-0.43
1.26
0.05
-0.1
1.19
0.13
0.85
0.3
0.76
1.46
-0.15
0.18
0.54
0.76
-0.34
-0.06
-0.49
0.34
1.05
1.38
0.03
-0.43
1.49
-0.43
1.26
0.05
-0.1
1.19
0.13
0.85
0.3
0.76
1.46
-0.15
0.18
0.54
0.76
-0.34
-0.06
-0.49
0.34
1.05
1.38
0.03
-0.43
1.49
-0.43
1.26
0.05
-0.1
1.19
0.13
0.85
0.3
0.76
1.46
-0.15
0.18
0.54
0.76
-0.34
-0.06
-0.49
0.34
1.05
1.38
0.03
-0.43
1.49
-0.43
1.26
0.05
-0.1
1.19
0.13
0.85
0.3
0.76
1.46
-0.15
0.18
0.54
0.76
-0.34
-0.06
-0.49
0.34
1.05
1.38
0.03
-0.43
1.49
-0.43
1.26
0.05
-0.1
1.19
0.13
0.85
0.3
0.76
1.46
-0.15
0.18
0.54
0.76
-0.34
-0.06
-0.49
0.34
1.05
1.38
0.03
-0.43
1.49
-0.43
1.26
0.05
-0.1
1.19
0.13
0.85
0.3
0.76
1.46
-0.15
0.18
0.54
0.76
-0.34
-0.06
-0.49
0.34
1.05
1.38
0.03
-0.43
1.49
-0.43
1.26
0.05
-0.1
1.19
0.13
0.85
0.3
0.76
1.46
-0.15
0.18
0.54
0.76
-0.34
-0.06
-0.49
0.34
1.05
1.38
0.03
-0.43
1.49
-0.43
1.26
0.05
-0.1
1.19
0.13
0.85
0.3
0.76
1.46
-0.15
0.18
0.54
0.76
-0.34
-0.06
-0.49
0.34
1.05
1.38
0.03
-0.43
1.49
-0.43
1.26
0.05
-0.1
1.19
0.13
0.85
0.3
0.76
1.46
-0.15
0.18
0.54
0.76
-0.34
-0.06
-0.49
0.34
1.05
1.38
0.03
-0.43
1.49
-0.43
1.26
0.05
-0.1
1.19
0.13
0.85
0.3
0.76
1.46
-0.15
0.18
0.54
0.76
-0.34
-0.06
-0.49
0.34
1.05
1.38
0.03
-0.43
1.49
-0.43
1.26
0.05
-0.1
1.19
0.13
0.85
0.3
0.76
1.46
-0.15
0.18
0.54
0.76
-0.34
-0.06
-0.49
0.34
1.05
1.38
0.03
-0.43
1.49
-0.43
1.26
0.05
-0.1
1.19
0.13
0.85
0.3
0.76
1.46
-0.15
0.18
0.54
0.76
-0.34
-0.06
-0.49
0.34
1.05
1.38
0.03
-0.43
1.49
-0.43
1.26
0.05
-0.1
1.19
0.13
0.85
0.3
0.76
1.46
-0.15
0.18
0.54
0.76
-0.34
-0.06
-0.49
0.34
1.05
1.38
0.03
-0.43
1.49
-0.43
1.26
0.05
-0.1
1.19
0.13
0.85
0.3
0.76
1.46
-0.15
0.18
0.54
0.76
-0.34
-0.06
-0.49
0.34
1.05
1.38
0.03
-0.43
1.49
-0.43
1.26
0.05
-0.1
1.19
0.13
0.85
0.3
0.76
1.46
-0.15
0.18
0.54
0.76
-0.34
-0.06
-0.49
0.34
1.05
1.38
0.03
-0.43
1.49
-0.43
1.26
0.05
-0.1
1.19
0.13
0.85
0.3
0.76
1.46
-0.15
0.18
0.54
0.76
-0.34
-0.06
-0.49
0.34
1.05
1.38
0.03
-0.43
1.49
-0.43
1.26
0.05
-0.1
1.19
0.13
0.85
0.3
0.76
1.46
-0.15
0.18
0.54
0.76
-0.34
-0.06
-0.49
0.34
1.05
1.38
0.03
-0.43
1.49
-0.43
1.26
0.05
-0.1
1.19
0.13
0.85
0.3
0.76
1.46
-0.15
0.18
0.54
0.76
-0.34
-0.06
-0.49
0.34
1.05
1.38
0.03
-0.43
1.49
-0.43
1.26
0.05
-0.1
1.19
0.13
0.85
0.3
0.76
1.46
-0.15
0.18
0.54
0.76
-0.34
-0.06
-0.49
0.34
1.05
1.38
0.03
-0.43
1.49
-0.43
1.26
0.05
-0.1
1.19
0.13
0.85
0.3
0.76
1.46
-0.15
0.18
0.54
0.76
-0.34
-0.06
-0.49
0.34
1.05
1.38
0.03
-0.43
1.49
-0.43
1.26
0.05
-0.1
1.19
0.13
0.85
0.3
0.76
1.46
-0.15
0.18
0.54
0.76
-0.34
-0.06
-0.49
0.34
1.05
1.38
0.03
-0.43
1.49
-0.43
1.26
0.05
-0.1
1.19
0.13
0.85
0.3
0.76
1.46
-0.15
0.18
0.54
0.76
-0.34
-0.06
-0.49
0.34
1.05
1.38
0.03
-0.43
1.49
-0.43
1.26
0.05
-0.1
1.19
0.13
0.85
0.3
0.76
1.46
-0.15
0.18
0.54
0.76
-0.34
-0.06
-0.49
0.34
1.05
1.38
0.03
-0.43
1.49
-0.43
1.26
0.05
-0.1
1.19
0.13
0.85
0.3
0.76
1.46
-0.15
0.18
0.54
0.76
-0.34
-0.06
-0.49
0.34
1.05
1.38
0.03
-0.43
1.49
-0.43
1.26
0.05
-0.1
1.19
0.13
0.85
0.3
0.76
1.46
-0.15
0.18
0.54
0.76
-0.34
-0.06
-0.49
0.34
1.05
1.38
0.03
-0.43
1.49
-0.43
1.26
0.05
-0.1
1.19
0.13
0.85
0.3
0.76
1.46
-0.15
0.18
0.54
0.76
-0.34
-0.06
-0.49
0.34
1.05
1.38
0.03
-0.43
1.49
-0.43
1.26
0.05
-0.1
1.19
0.13
0.85
0.3
0.76
1.46
-0.15
0.18
0.54
0.76
-0.34
-0.06
-0.49
0.34
1.05
1.38
0.03
-0.43
1.49
-0.43
1.26
0.05
-0.1
1.19
0.13
0.85
0.3
0.76
1.46
-0.15
0.18
0.54
0.76
-0.34
-0.06
-0.49
0.34
1.05
1.38
0.03
-0.43
1.49
-0.43
1.26
0.05
-0.1
1.19
0.13
0.85
0.3
0.76
1.46
-0.15
0.18
0.54
0.76
-0.34
-0.06
-0.49
0.34
1.05
1.38
0.03
-0.43
1.49
-0.43
1.26
0.05
-0.1
1.19
0.13
0.85
0.3
0.76
1.46
-0.15
0.18
0.54
0.76
-0.34
-0.06
-0.49
0.34
1.05
1.38
0.03
-0.43
1.49
-0.43
1.26
0.05
-0.1
1.19
0.13
0.85
0.3
0.76
1.46
-0.15
0.18
0.54
0.76
-0.34
-0.06
-0.49
0.34
1.05
1.38
0.03
-0.43
1.49
-0.43
1.26
0.05
-0.1
1.19
0.13
0.85
0.3
0.76
1.46
-0.15
0.18
0.54
0.76
-0.34
-0.06
-0.49
0.34
1.05
1.38
0.03
-0.43
1.49
-0.43
1.26
0.05
-0.1
1.19
0.13
0.85
0.3
0.76
1.46
-0.15
0.18
0.54
0.76
-0.34
-0.06
-0.49
0.34
1.05
1.38
0.03
-0.43
1.49
-0.43
1.26
0.05
-0.1
1.19
0.13
0.85
0.3
0.76
1.46
-0.15
0.18
0.54
0.76
-0.34
-0.06
-0.49
0.34
1.05
1.38
0.03
-0.43
1.49
-0.43
1.26
0.05
-0.1
1.19
0.13
0.85
0.3
0.76
1.46
-0.15
0.18
0.54
0.76
-0.34
-0.06
-0.49
0.34
1.05
1.38
0.03
-0.43
1.49
-0.43
1.26
0.05
-0.1
1.19
0.13
0.85
0.3
0.76
1.46
-0.15
0.18
0.54
0.76
-0.34
-0.06
-0.49
0.34
1.05
1.38
0.03
-0.43
1.49
-0.43
1.26
0.05
-0.1
1.19
0.13
0.85
0.3
0.76
1.46
-0.15
0.18
0.54
0.76
-0.34
-0.06
-0.49
0.34
1.05
1.38
0.03
-0.43
1.49
-0.43
1.26
0.05
-0.1
1.19
0.13
0.85
0.3
0.76
1.46
-0.15
0.18
0.54
0.76
-0.34
-0.06
-0.49
0.34
1.05
1.38
0.03
-0.43
1.49
-0.43
1.26
0.05
-0.1
1.19
0.13
0.85
0.3
0.76
1.46
-0.15
0.18
0.54
0.76
-0.34
-0.06
-0.49
0.34
1.05
1.38
0.03
-0.43
1.49
-0.43
1.26
0.05
-0.1
1.19
0.13
0.85
0.3
0.76
1.46
-0.15
0.18
0.54
0.76
-0.34
-0.06
-0.49
0.34
1.05
1.38
0.03
-0.43
1.49
-0.43
1.26
0.05
-0.1
1.19
0.13
0.85
0.3
0.76
1.46
-0.15
0.18
0.54
0.76
-0.34
-0.06
-0.49
0.34
1.05
1.38
0.03
-0.43
1.49
-0.43
1.26
0.05
-0.1
1.19
0.13
0.85
0.3
0.76
1.46
-0.15
0.18
0.54
0.76
-0.34
-0.06
-0.49
0.34
1.05
1.38
0.03
-0.43
1.49
-0.43
1.26
0.05
-0.1
1.19
0.13
0.85
0.3
0.76
1.46
-0.15
0.18
0.54
0.76
-0.34
-0.06
-0.49
0.34
1.05
1.38
0.03
-0.43
1.49
-0.43
1.26
0.05
-0.1
1.19
0.13
0.85
0.3
0.76
1.46
-0.15
0.18
0.54
0.76
-0.34
-0.06
-0.49
0.34
1.05
1.38
0.03
-0.43
1.49
-0.43
1.26
0.05
-0.1
1.19
0.13
0.85
0.3
0.76
1.46
-0.15
0.18
0.54
0.76
-0.34
-0.06
-0.49
0.34
1.05
1.38
0.03
-0.43
1.49
-0.43
1.26
0.05
-0.1
1.19
0.13
0.85
0.3
0.76
1.46
-0.15
0.18
0.54
0.76
-0.34
-0.06
-0.49
0.34
1.05
1.38
0.03
-0.43
1.49
-0.43
1.26
0.05
-0.1
1.19
0.13
0.85
0.3
0.76
1.46
-0.15
0.18
0.54
0.76
-0.34
-0.06
-0.49
0.34
1.05
1.38
0.03
-0.43
1.49
-0.43
1.26
0.05
-0.1
1.19
0.13
0.85
0.3
0.76
1.46
-0.15
0.18
0.54
0.76
-0.34
-0.06
-0.49
0.34
1.05
1.38
0.03
-0.43
1.49
-0.43
1.26
0.05
-0.1
1.19
0.13
0.85
0.3
0.76
1.46
-0.15
0.18
0.54
0.76
-0.34
-0.06
-0.49
0.34
1.05
1.38
0.03
-0.43
1.49
-0.43
1.26
0.05
-0.1
1.19
0.13
0.85
0.3
0.76
1.46
-0.15
0.18
0.54
0.76
-0.34
-0.06
-0.49
0.34
1.05
1.38
0.03
-0.43
1.49
-0.43
1.26
0.05
-0.1
1.19
0.13
0.85
0.3
0.76
1.46
-0.15
0.18
0.54
0.76
-0.34
-0.06
-0.49
0.34
1.05
1.38
0.03
-0.43
1.49
-0.43
1.26
0.05
-0.1
1.19
0.13
0.85
0.3
0.76
1.46
-0.15
0.18
0.54
0.76
-0.34
-0.06
-0.49
0.34
1.05
1.38
0.03
-0.43
1.49
-0.43
1.26
0.05
-0.1
1.19
0.13
0.85
0.3
0.76
1.46
-0.15
0.18
0.54
0.76
-0.34
-0.06
-0.49
0.34
1.05
1.38
0.03
-0.43
1.49
-0.43
1.26
0.05
-0.1
1.19
0.13
0.85
0.3
0.76
1.46
-0.15
0.18
0.54
0.76
-0.34
-0.06
-0.49
0.34
1.05
1.38
0.03
-0.43
1.49
-0.43
1.26
0.05
-0.1
1.19
0.13
0.85
0.3
0.76
1.46
-0.15
0.18
0.54
0.76
-0.34
-0.06
-0.49
0.34
1.05
1.38
0.03
-0.43
1.49
-0.43
1.26
0.05
-0.1
1.19
0.13
0.85
0.3
0.76
1.46
-0.15
0.18
0.54
0.76
-0.34
-0.06
-0.49
0.34
1.05
1.38
0.03
-0.43
1.49
-0.43
1.26
0.05
-0.1
1.19
0.13
0.85
0.3
0.76
1.46
-0.15
0.18
0.54
0.76
-0.34
-0.06
-0.49
0.34
1.05
1.38
0.03
-0.43
1.49
-0.43
1.26
0.05
-0.1
1.19
0.13
0.85
0.3
0.76
1.46
-0.15
0.18
0.54
0.76
-0.34
-0.06
-0.49
0.34
1.05
1.38
0.03
-0.43
1.49
-0.43
1.26
0.05
-0.1
1.19
0.13
0.85
0.3
0.76
1.46
-0.15
0.18
0.54
0.76
-0.34
-0.06
-0.49
0.34
1.05
1.38
0.03
-0.43
1.49
-0.43
1.26
0.05
-0.1
1.19
0.13
0.85
0.3
0.76
1.46
-0.15
0.18
0.54
0.76
-0.34
-0.06
-0.49
0.34
1.05
1.38
0.03
-0.43
1.49
-0.43
1.26
0.05
-0.1
1.19
0.13
0.85
0.3
0.76
1.46
-0.15
0.18
0.54
0.76
-0.34
-0.06
-0.49
0.34
1.05
1.38
0.03
-0.43
1.49
-0.43
1.26
0.05
-0.1
1.19
0.13
0.85
0.3
0.76
1.46
-0.15
0.18
0.54
0.76
-0.34
-0.06
-0.49
0.34
1.05
1.38
0.03
-0.43
1.49
-0.43
1.26
0.05
-0.1
1.19
0.13
0.85
0.3
0.76
1.46
-0.15
0.18
0.54
0.76
-0.34
-0.06
-0.49
0.34
1.05
1.38
0.03
-0.43
1.49
-0.43
1.26
0.05
-0.1
1.19
0.13
0.85
0.3
0.76
1.46
-0.15
0.18
0.54
0.76
-0.34
-0.06
-0.49
0.34
1.05
1.38
0.03
-0.43
1.49
-0.43
1.26
0.05
-0.1
1.19
0.13
0.85
0.3
0.76
1.46
-0.15
0.18
0.54
0.76
-0.34
-0.06
-0.49
0.34
1.05
1.38
0.03
-0.43
1.49
-0.43
1.26
0.05
-0.1
1.19
0.13
0.85
0.3
0.76
1.46
-0.15
0.18
0.54
0.76
-0.34
-0.06
-0.49
0.34
1.05
1.38
0.03
-0.43
1.49
-0.43
1.26
0.05
-0.1
1.19
0.13
0.85
0.3
0.76
1.46
-0.15
0.18
0.54
0.76
-0.34
-0.06
-0.49
0.34
1.05
1.38
0.03
-0.43
1.49
-0.43
1.26
0.05
-0.1
1.19
0.13
0.85
0.3
0.76
1.46
-0.15
0.18
0.54
0.76
-0.34
-0.06
-0.49
0.34
1.05
1.38
0.03
-0.43
1.49
-0.43
1.26
0.05
-0.1
1.19
0.13
0.85
0.3
0.76
1.46
-0.15
0.18
0.54
0.76
-0.34
-0.06
-0.49
0.34
1.05
1.38
0.03
-0.43
1.49
-0.43
1.26
0.05
-0.1
1.19
0.13
0.85
0.3
0.76
1.46
-0.15
0.18
0.54
0.76
-0.34
-0.06
-0.49
0.34
1.05
1.38
0.03
-0.43
1.49
-0.43
1.26
0.05
-0.1
1.19
0.13
0.85
0.3
0.76
1.46
-0.15
0.18
0.54
0.76
-0.34
-0.06
-0.49
0.34
1.05
1.38
0.03
-0.43
1.49
-0.43
1.26
0.05
-0.1
1.19
0.13
0.85
0.3
0.76
1.46
-0.15
0.18
0.54
0.76
-0.34
-0.06
-0.49
0.34
1.05
1.38
0.03
-0.43
1.49
-0.43
1.26
0.05
-0.1
1.19
0.13
0.85
0.3
0.76
1.46
-0.15
0.18
0.54
0.76
-0.34
-0.06
-0.49
0.34
1.05
1.38
0.03
-0.43
1.49
-0.43
1.26
0.05
-0.1
1.19
0.13
0.85
0.3
0.76
1.46
-0.15
0.18
0.54
0.76
-0.34
-0.06
-0.49
0.34
1.05
1.38
0.03
-0.43
1.49
-0.43
1.26
0.05
-0.1
1.19
0.13
0.85
0.3
0.76
1.46
-0.15
0.18
0.54
0.76
-0.34
-0.06
-0.49
0.34
1.05
1.38
0.03
-0.43
1.49
-0.43
1.26
0.05
-0.1
1.19
0.13
0.85
0.3
0.76
1.46
-0.15
0.18
0.54
0.76
-0.34
-0.06
-0.49
0.34
1.05
1.38
0.03
-0.43
1.49
-0.43
1.26
0.05
-0.1
1.19
0.13
0.85
0.3
0.76
1.46
-0.15
0.18
0.54
0.76
-0.34
-0.06
-0.49
0.34
1.05
1.38
0.03
-0.43
1.49
-0.43
1.26
0.05
-0.1
1.19
0.13
0.85
0.3
0.76
1.46
-0.15
0.18
0.54
0.76
-0.34
-0.06
-0.49
0.34
1.05
1.38
0.03
-0.43
1.49
-0.43
1.26
0.05
-0.1
1.19
0.13
0.85
0.3
0.76
1.46
-0.15
0.18
0.54
0.76
-0.34
-0.06
-0.49
0.34
1.05
1.38
0.03
-0.43
1.49
-0.43
1.26
0.05
-0.1
1.19
0.13
0.85
0.3
0.76
1.46
-0.15
0.18
0.54
0.76
-0.34
-0.06
-0.49
0.34
1.05
1.38
0.03
-0.43
1.49
-0.43
1.26
0.05
-0.1
1.19
0.13
0.85
0.3
0.76
1.46
-0.15
0.18
0.54
0.76
-0.34
-0.06
-0.49
0.34
1.05
1.38
0.03
-0.43
1.49
-0.43
1.26
0.05
-0.1
1.19
0.13
0.85
0.3
0.76
1.46
-0.15
0.18
0.54
0.76
-0.34
-0.06
-0.49
0.34
1.05
1.38
0.03
-0.43
1.49
-0.43
1.26
0.05
-0.1
1.19
0.13
0.85
0.3
0.76
1.46
-0.15
0.18
0.54
0.76
-0.34
-0.06
-0.49
0.34
1.05
1.38
0.03
-0.43
1.49
-0.43
1.26
0.05
-0.1
